// TensorFlow Lite RSSI prediction model
// Generated from rssi_model_float32.tflite
// Model size: 4972 bytes (4.86 KB)
//
// Model architecture:
//   Input(6) -> Dense(32, ReLU) -> Dense(16, ReLU) -> Dense(1)
//
// Features: RSRP, RSRQ, SINR, Latitude, Longitude, Elevation

#ifndef RSSI_MODEL_H
#define RSSI_MODEL_H

// Model data
alignas(4) const unsigned char rssi_model_tflite[] = {
  0x1c, 0x00, 0x00, 0x00, 0x54, 0x46, 0x4c, 0x33, 0x14, 0x00, 0x20, 0x00,
  0x1c, 0x00, 0x18, 0x00, 0x14, 0x00, 0x10, 0x00, 0x0c, 0x00, 0x00, 0x00,
  0x08, 0x00, 0x04, 0x00, 0x14, 0x00, 0x00, 0x00, 0x1c, 0x00, 0x00, 0x00,
  0x98, 0x00, 0x00, 0x00, 0xf0, 0x00, 0x00, 0x00, 0x14, 0x0e, 0x00, 0x00,
  0x24, 0x0e, 0x00, 0x00, 0x18, 0x13, 0x00, 0x00, 0x03, 0x00, 0x00, 0x00,
  0x01, 0x00, 0x00, 0x00, 0x10, 0x00, 0x00, 0x00, 0x00, 0x00, 0x0a, 0x00,
  0x10, 0x00, 0x0c, 0x00, 0x08, 0x00, 0x04, 0x00, 0x0a, 0x00, 0x00, 0x00,
  0x0c, 0x00, 0x00, 0x00, 0x1c, 0x00, 0x00, 0x00, 0x3c, 0x00, 0x00, 0x00,
  0x0f, 0x00, 0x00, 0x00, 0x73, 0x65, 0x72, 0x76, 0x69, 0x6e, 0x67, 0x5f,
  0x64, 0x65, 0x66, 0x61, 0x75, 0x6c, 0x74, 0x00, 0x01, 0x00, 0x00, 0x00,
  0x04, 0x00, 0x00, 0x00, 0x90, 0xff, 0xff, 0xff, 0x09, 0x00, 0x00, 0x00,
  0x04, 0x00, 0x00, 0x00, 0x08, 0x00, 0x00, 0x00, 0x6f, 0x75, 0x74, 0x70,
  0x75, 0x74, 0x5f, 0x30, 0x00, 0x00, 0x00, 0x00, 0x01, 0x00, 0x00, 0x00,
  0x04, 0x00, 0x00, 0x00, 0xba, 0xf2, 0xff, 0xff, 0x04, 0x00, 0x00, 0x00,
  0x0c, 0x00, 0x00, 0x00, 0x6b, 0x65, 0x72, 0x61, 0x73, 0x5f, 0x74, 0x65,
  0x6e, 0x73, 0x6f, 0x72, 0x00, 0x00, 0x00, 0x00, 0x02, 0x00, 0x00, 0x00,
  0x34, 0x00, 0x00, 0x00, 0x04, 0x00, 0x00, 0x00, 0xdc, 0xff, 0xff, 0xff,
  0x0c, 0x00, 0x00, 0x00, 0x04, 0x00, 0x00, 0x00, 0x13, 0x00, 0x00, 0x00,
  0x43, 0x4f, 0x4e, 0x56, 0x45, 0x52, 0x53, 0x49, 0x4f, 0x4e, 0x5f, 0x4d,
  0x45, 0x54, 0x41, 0x44, 0x41, 0x54, 0x41, 0x00, 0x08, 0x00, 0x0c, 0x00,
  0x08, 0x00, 0x04, 0x00, 0x08, 0x00, 0x00, 0x00, 0x0b, 0x00, 0x00, 0x00,
  0x04, 0x00, 0x00, 0x00, 0x13, 0x00, 0x00, 0x00, 0x6d, 0x69, 0x6e, 0x5f,
  0x72, 0x75, 0x6e, 0x74, 0x69, 0x6d, 0x65, 0x5f, 0x76, 0x65, 0x72, 0x73,
  0x69, 0x6f, 0x6e, 0x00, 0x0d, 0x00, 0x00, 0x00, 0x20, 0x0d, 0x00, 0x00,
  0x18, 0x0d, 0x00, 0x00, 0xc8, 0x0c, 0x00, 0x00, 0xac, 0x0c, 0x00, 0x00,
  0x5c, 0x0c, 0x00, 0x00, 0x4c, 0x04, 0x00, 0x00, 0x3c, 0x01, 0x00, 0x00,
  0xac, 0x00, 0x00, 0x00, 0xa4, 0x00, 0x00, 0x00, 0x9c, 0x00, 0x00, 0x00,
  0x94, 0x00, 0x00, 0x00, 0x74, 0x00, 0x00, 0x00, 0x04, 0x00, 0x00, 0x00,
  0x6a, 0xf3, 0xff, 0xff, 0x04, 0x00, 0x00, 0x00, 0x60, 0x00, 0x00, 0x00,
  0x10, 0x00, 0x00, 0x00, 0x00, 0x00, 0x00, 0x00, 0x08, 0x00, 0x0e, 0x00,
  0x08, 0x00, 0x04, 0x00, 0x08, 0x00, 0x00, 0x00, 0x10, 0x00, 0x00, 0x00,
  0x24, 0x00, 0x00, 0x00, 0x00, 0x00, 0x06, 0x00, 0x08, 0x00, 0x04, 0x00,
  0x06, 0x00, 0x00, 0x00, 0x04, 0x00, 0x00, 0x00, 0x00, 0x00, 0x00, 0x00,
  0x0c, 0x00, 0x18, 0x00, 0x14, 0x00, 0x10, 0x00, 0x0c, 0x00, 0x04, 0x00,
  0x0c, 0x00, 0x00, 0x00, 0x6c, 0x80, 0xb5, 0x09, 0x5d, 0xc5, 0x11, 0xf0,
  0x02, 0x00, 0x00, 0x00, 0x02, 0x00, 0x00, 0x00, 0x04, 0x00, 0x00, 0x00,
  0x06, 0x00, 0x00, 0x00, 0x32, 0x2e, 0x32, 0x30, 0x2e, 0x30, 0x00, 0x00,
  0xd6, 0xf3, 0xff, 0xff, 0x04, 0x00, 0x00, 0x00, 0x10, 0x00, 0x00, 0x00,
  0x31, 0x2e, 0x35, 0x2e, 0x30, 0x00, 0x00, 0x00, 0x00, 0x00, 0x00, 0x00,
  0x00, 0x00, 0x00, 0x00, 0xc4, 0xee, 0xff, 0xff, 0xc8, 0xee, 0xff, 0xff,
  0xcc, 0xee, 0xff, 0xff, 0xfe, 0xf3, 0xff, 0xff, 0x04, 0x00, 0x00, 0x00,
  0x80, 0x00, 0x00, 0x00, 0xc1, 0x97, 0x76, 0x3f, 0x6a, 0xf7, 0xfd, 0x3e,
  0xee, 0xb7, 0x52, 0x3f, 0x74, 0x9a, 0x47, 0x3f, 0x35, 0x0c, 0x7d, 0x3f,
  0x41, 0x22, 0x78, 0x3f, 0x42, 0x45, 0x3c, 0x3f, 0xb8, 0x53, 0x22, 0x3f,
  0x98, 0xf3, 0x5d, 0x3f, 0xec, 0x22, 0x5e, 0x3f, 0x39, 0x0e, 0x48, 0x3f,
  0x5b, 0x66, 0x6b, 0x3f, 0xd8, 0xf6, 0x65, 0x3f, 0x91, 0x93, 0x5a, 0x3f,
  0x53, 0x92, 0x84, 0x3f, 0x44, 0x45, 0x4e, 0x3f, 0xb7, 0x98, 0x19, 0x3f,
  0x03, 0x3f, 0x7d, 0x3f, 0x67, 0x50, 0x59, 0x3f, 0x5a, 0xe5, 0x72, 0x3f,
  0x3f, 0x15, 0x7a, 0x3f, 0x8e, 0x27, 0x55, 0x3f, 0xa0, 0x62, 0x3a, 0x3f,
  0x41, 0xc8, 0x69, 0x3f, 0x76, 0xa4, 0xfc, 0x3e, 0x92, 0x55, 0x34, 0x3f,
  0x52, 0x7d, 0x5c, 0x3f, 0xb2, 0x14, 0x78, 0x3f, 0x35, 0xd1, 0xc6, 0xbd,
  0xd2, 0xdc, 0xd4, 0xbe, 0xd0, 0x8f, 0x6e, 0x3f, 0x26, 0x01, 0x74, 0x3f,
  0x8a, 0xf4, 0xff, 0xff, 0x04, 0x00, 0x00, 0x00, 0x00, 0x03, 0x00, 0x00,
  0xee, 0xea, 0x23, 0xbe, 0x9f, 0x3e, 0x6f, 0x3d, 0xff, 0x4c, 0x8b, 0x3d,
  0x55, 0xc0, 0x30, 0x3e, 0x68, 0xe2, 0x9e, 0xbc, 0x1e, 0xfd, 0x16, 0x3e,
  0x86, 0xf1, 0x06, 0xbf, 0x5c, 0x01, 0xca, 0xbb, 0xef, 0x34, 0x14, 0xbe,
  0xf5, 0x36, 0x00, 0x3e, 0xaa, 0xa7, 0x19, 0xbf, 0xb7, 0x01, 0x81, 0xbe,
  0x47, 0x57, 0xcd, 0xbd, 0xe5, 0x8c, 0xde, 0x3d, 0x20, 0xaa, 0x96, 0xbd,
  0xb0, 0xd3, 0xea, 0xbd, 0x1f, 0xb7, 0x94, 0x3e, 0xc4, 0xef, 0x7a, 0x3e,
  0x66, 0xa9, 0x97, 0x3e, 0x42, 0x5f, 0x83, 0xbd, 0x59, 0x8b, 0x89, 0x3e,
  0xef, 0x72, 0xd1, 0x3c, 0x8a, 0xa5, 0xc0, 0x3e, 0x36, 0xba, 0x17, 0x3e,
  0xa5, 0x0f, 0xfa, 0xbd, 0xf1, 0x38, 0x53, 0x3e, 0x7b, 0x25, 0xe3, 0x3c,
  0x8f, 0xc6, 0x86, 0x3e, 0x18, 0x89, 0xa4, 0x3d, 0xaf, 0x4d, 0x1b, 0x3e,
  0x83, 0x66, 0x2c, 0x3f, 0x1e, 0x39, 0xd4, 0xbe, 0xb5, 0x3a, 0x64, 0xbd,
  0x42, 0x4f, 0xa6, 0xbe, 0xf8, 0x0a, 0x69, 0x3e, 0xc5, 0xd6, 0xff, 0xbd,
  0x07, 0x92, 0x83, 0xbe, 0x61, 0x60, 0xba, 0x3d, 0xce, 0x77, 0x48, 0xbe,
  0xd6, 0x52, 0x86, 0x3e, 0xa4, 0xb4, 0x7b, 0x3e, 0xad, 0x41, 0x68, 0xbe,
  0xc4, 0xfb, 0xdf, 0x3e, 0xbc, 0x3d, 0x53, 0xbe, 0xdd, 0xef, 0xb4, 0x3c,
  0x8d, 0x7e, 0x08, 0x3f, 0x48, 0x8c, 0x31, 0xbe, 0xe4, 0x8e, 0xb5, 0x3d,
  0xfd, 0x63, 0x0a, 0x3e, 0x2d, 0x7e, 0x83, 0x3d, 0x76, 0x42, 0x25, 0xbe,
  0x23, 0x7d, 0x85, 0xbe, 0xc0, 0x75, 0xda, 0xbe, 0x39, 0xe2, 0x4f, 0x3d,
  0x58, 0x62, 0x0a, 0xbf, 0x64, 0x37, 0xbb, 0x3d, 0x5f, 0x3c, 0x12, 0xbe,
  0x2e, 0x27, 0x56, 0x3e, 0xd5, 0x94, 0x03, 0x3e, 0x68, 0x7f, 0x55, 0xbe,
  0xb7, 0x9a, 0x1b, 0xbf, 0xe7, 0x68, 0x5f, 0x3c, 0xa4, 0x75, 0xdf, 0x3d,
  0x40, 0xe1, 0x6e, 0xbe, 0xa5, 0xfd, 0x9d, 0x3d, 0xda, 0x08, 0x39, 0x3e,
  0x38, 0x7e, 0x15, 0xbe, 0xa8, 0xcd, 0xdf, 0x3e, 0xa1, 0xc2, 0x96, 0x3d,
  0x81, 0x17, 0x2d, 0xbd, 0xcc, 0x3f, 0x43, 0xbe, 0x06, 0x34, 0x30, 0xbe,
  0x80, 0x52, 0x93, 0xbd, 0x52, 0x03, 0x88, 0xbd, 0xc0, 0x84, 0xba, 0x3e,
  0xac, 0x83, 0x4a, 0xbc, 0x61, 0xdc, 0xe0, 0x3d, 0xcf, 0xb2, 0x0d, 0xbe,
  0xef, 0xd8, 0x34, 0x3f, 0x12, 0x92, 0x5a, 0xbe, 0x69, 0x44, 0x87, 0xbe,
  0xb3, 0x3f, 0xce, 0xbe, 0x71, 0xa5, 0xe7, 0x3c, 0xb0, 0xa4, 0xc0, 0xbd,
  0x3f, 0x65, 0xdc, 0xbd, 0x0a, 0x12, 0x9a, 0xbc, 0xc0, 0x09, 0x2a, 0xbe,
  0xbf, 0xe1, 0xa8, 0xbd, 0xb1, 0x61, 0xb1, 0xbe, 0x04, 0x4a, 0x3d, 0xbe,
  0xca, 0x1e, 0x93, 0xbe, 0xb5, 0x50, 0x10, 0x3d, 0x3f, 0xf9, 0xb8, 0x3d,
  0xef, 0xee, 0x6d, 0xbe, 0xac, 0x44, 0x78, 0x3e, 0xb5, 0xdf, 0x4a, 0x3e,
  0xcf, 0x4a, 0x50, 0xbf, 0x4b, 0x7a, 0xd4, 0x3d, 0x71, 0xbe, 0x8e, 0x3d,
  0x30, 0x71, 0xa3, 0xbe, 0xb9, 0xfc, 0x81, 0x3d, 0xb1, 0x07, 0x0e, 0x3c,
  0x71, 0x2e, 0x5f, 0xbe, 0xf3, 0xc4, 0x64, 0x3d, 0x44, 0xbf, 0x56, 0x3e,
  0xcf, 0xbd, 0x6e, 0x3e, 0x6f, 0xaa, 0xa0, 0x3c, 0x38, 0xbc, 0x3a, 0xbe,
  0xdf, 0xf3, 0x9a, 0xbe, 0x44, 0xf8, 0x65, 0x3d, 0x8f, 0x5b, 0xcd, 0xbc,
  0x67, 0x42, 0x4a, 0xbe, 0xf7, 0xa1, 0x41, 0xbe, 0xdc, 0x35, 0x89, 0xbd,
  0x33, 0x2c, 0x14, 0x3c, 0x49, 0xaf, 0xea, 0xbd, 0xf6, 0x94, 0xf4, 0xbd,
  0xf9, 0x2f, 0xa3, 0xbc, 0xe7, 0xda, 0xd7, 0x3c, 0xcd, 0x39, 0x34, 0x3e,
  0x3b, 0x08, 0x39, 0xbe, 0x26, 0x34, 0x17, 0x3d, 0x41, 0x25, 0xe4, 0x3d,
  0x96, 0x4d, 0xcd, 0x3d, 0x14, 0x02, 0x6a, 0xbe, 0xb9, 0xb4, 0x7f, 0xbe,
  0x00, 0x1e, 0x12, 0xbf, 0x52, 0xdd, 0x99, 0x3e, 0xa9, 0x63, 0x49, 0xbd,
  0x52, 0xfc, 0x84, 0x3e, 0xca, 0x1c, 0x77, 0xbe, 0x01, 0xc5, 0x2c, 0xbd,
  0x3c, 0x4c, 0x12, 0x3e, 0x30, 0xe9, 0x63, 0xbd, 0xc7, 0x22, 0x30, 0xbe,
  0x81, 0xc2, 0xdb, 0xbe, 0x96, 0x90, 0x72, 0xbe, 0xde, 0x31, 0x57, 0x3e,
  0xf9, 0x74, 0x02, 0xbe, 0xba, 0x30, 0x95, 0x3d, 0xc4, 0x2e, 0xab, 0xbc,
  0x74, 0x86, 0x64, 0xbc, 0x08, 0xb6, 0x24, 0xbd, 0xa9, 0xd3, 0x08, 0x3e,
  0xd3, 0xe2, 0x71, 0xbf, 0xd1, 0x90, 0x90, 0x3e, 0x7a, 0xda, 0x27, 0xbd,
  0x16, 0x16, 0xe5, 0x3d, 0x07, 0x0d, 0x3f, 0x3c, 0xb2, 0x5a, 0xd6, 0xbd,
  0x3d, 0x49, 0x67, 0xbd, 0xb7, 0x15, 0xf1, 0x3d, 0xed, 0x15, 0xb3, 0xbd,
  0x2e, 0xdd, 0x0c, 0xbe, 0x86, 0x9b, 0x58, 0xbe, 0x9d, 0x7c, 0xac, 0xbc,
  0xd4, 0xec, 0x30, 0x3d, 0x98, 0x76, 0xef, 0xbd, 0xeb, 0xe1, 0x22, 0xbe,
  0xbc, 0xa5, 0x45, 0xbe, 0x8d, 0x47, 0x82, 0xbd, 0xb7, 0xf9, 0xcb, 0x3d,
  0x33, 0x1d, 0x72, 0xbd, 0xbf, 0xbc, 0x3c, 0xbd, 0xb8, 0x65, 0x38, 0x3d,
  0x19, 0xd1, 0xdf, 0xba, 0x62, 0x14, 0x92, 0x3e, 0xd1, 0x86, 0x49, 0x3d,
  0xb7, 0x1c, 0x22, 0x3f, 0x00, 0xc6, 0xf3, 0xbd, 0x1b, 0x61, 0x37, 0x3c,
  0x30, 0x8a, 0x39, 0x3e, 0xca, 0xed, 0x5e, 0xbf, 0xa7, 0x71, 0xeb, 0xbd,
  0x2b, 0xb4, 0xa1, 0xbe, 0x8a, 0x13, 0xbe, 0x3d, 0x55, 0x62, 0xb3, 0x3d,
  0x70, 0xa0, 0xdf, 0x3d, 0x5d, 0xbe, 0xbe, 0xbd, 0x8c, 0x57, 0xaa, 0xbd,
  0x11, 0xb1, 0x4f, 0xbe, 0x88, 0x2f, 0x61, 0x3d, 0xca, 0xf6, 0xc3, 0x3c,
  0x10, 0x1b, 0xa6, 0x3e, 0x1d, 0x3c, 0x22, 0x3e, 0x99, 0x86, 0xc2, 0x3d,
  0x0b, 0x13, 0x0b, 0x3f, 0x79, 0x21, 0xa2, 0xbe, 0x95, 0x08, 0xdb, 0xbc,
  0x8d, 0x14, 0x73, 0x3e, 0x61, 0x1e, 0xd8, 0xbd, 0x0c, 0x4c, 0x9b, 0x3c,
  0x96, 0xf7, 0xff, 0xff, 0x04, 0x00, 0x00, 0x00, 0x00, 0x08, 0x00, 0x00,
  0x7e, 0x98, 0x35, 0x3f, 0x7d, 0x18, 0xb7, 0x3e, 0xa8, 0xdd, 0xc0, 0x3e,
  0x0e, 0x26, 0x32, 0x3e, 0x50, 0x3e, 0x22, 0x3f, 0x5a, 0x10, 0x1d, 0x3f,
  0x3b, 0x50, 0x28, 0x3e, 0x49, 0x83, 0xf1, 0x3e, 0x6c, 0xbe, 0xba, 0x3e,
  0x76, 0x49, 0xc4, 0x3e, 0x41, 0xa7, 0x14, 0x3f, 0xec, 0x0a, 0x32, 0x3e,
  0x32, 0x53, 0x80, 0xbd, 0xf0, 0xb9, 0xfb, 0x3e, 0xa2, 0x5c, 0xff, 0x3e,
  0xb8, 0x88, 0xcf, 0x3e, 0x6f, 0x30, 0x3b, 0x3e, 0x9a, 0x60, 0x90, 0x3e,
  0x17, 0x0b, 0xf6, 0x3e, 0xa5, 0xa3, 0x65, 0x3e, 0x9f, 0xd1, 0xe5, 0x3e,
  0x6c, 0x2c, 0x27, 0x3f, 0x8b, 0x01, 0xec, 0x3e, 0xd0, 0x93, 0x24, 0x3f,
  0x92, 0x22, 0x6a, 0x3e, 0x73, 0xc3, 0x5a, 0xbd, 0x62, 0x86, 0xca, 0x3e,
  0x0f, 0x7b, 0x10, 0x3f, 0x8f, 0x11, 0x97, 0x3d, 0x42, 0x1a, 0x16, 0xbf,
  0x4a, 0x96, 0x70, 0x3e, 0x88, 0xc7, 0xa1, 0x3e, 0x2e, 0x73, 0x5f, 0x3e,
  0x3d, 0xdb, 0xc1, 0x3e, 0x58, 0x82, 0x20, 0xbd, 0xf5, 0x33, 0x20, 0x3e,
  0x90, 0x82, 0x7d, 0x3e, 0x1a, 0xee, 0x09, 0x3f, 0x9c, 0x4b, 0x05, 0x3e,
  0x74, 0xae, 0xb0, 0x3e, 0x0a, 0x84, 0x27, 0xbd, 0xb3, 0xe7, 0x95, 0x3e,
  0x50, 0x17, 0x59, 0x3e, 0x7c, 0xc4, 0x46, 0x3e, 0x5e, 0x60, 0x04, 0x3f,
  0x83, 0x81, 0xda, 0x3c, 0x97, 0x57, 0x26, 0x3f, 0x15, 0xfa, 0xd3, 0x3e,
  0x55, 0xae, 0x16, 0x3e, 0xe4, 0xca, 0xf3, 0x3e, 0x95, 0xa5, 0xdf, 0x3e,
  0x5e, 0x90, 0xd6, 0x3e, 0x83, 0xe6, 0x8d, 0x3e, 0xf8, 0x9c, 0x08, 0x3f,
  0xf4, 0xf6, 0xc6, 0x3e, 0xa1, 0x86, 0x07, 0x3f, 0x8e, 0x18, 0x14, 0x3f,
  0xc2, 0xbf, 0x07, 0xbd, 0x8f, 0x79, 0xbf, 0x3e, 0x28, 0x5c, 0x83, 0x3e,
  0x1d, 0x90, 0x91, 0x3c, 0xd0, 0xe7, 0xbd, 0xbe, 0x6e, 0x51, 0xa4, 0x3e,
  0x3b, 0x60, 0x86, 0x3e, 0x7d, 0x74, 0x41, 0x3e, 0x6d, 0x73, 0x9e, 0xbe,
  0xcc, 0xbe, 0x4b, 0xbe, 0x87, 0x12, 0x22, 0xbe, 0x72, 0xfd, 0xae, 0xbd,
  0xa1, 0xd9, 0xc1, 0xbd, 0x69, 0x88, 0x8d, 0x3e, 0xbd, 0x82, 0x57, 0xbe,
  0x48, 0x80, 0x81, 0xbe, 0xd7, 0x2c, 0x74, 0x3e, 0x30, 0x48, 0xb7, 0x3d,
  0xc6, 0xba, 0xb2, 0xbd, 0xe2, 0x1a, 0x91, 0xbe, 0xe3, 0x7b, 0xa3, 0x3d,
  0x0f, 0x90, 0x8c, 0xbe, 0x42, 0xb7, 0x0b, 0xbd, 0x86, 0x26, 0x5b, 0xbc,
  0x8f, 0xef, 0x08, 0x3e, 0xc2, 0x5d, 0x96, 0xbe, 0x25, 0x90, 0xc1, 0xbe,
  0xed, 0x3d, 0xcb, 0x3a, 0xf4, 0xf9, 0x78, 0xbe, 0x2d, 0xa3, 0x33, 0xbe,
  0xa9, 0x8a, 0xdc, 0xbd, 0x27, 0xf8, 0x29, 0xbe, 0x5b, 0x92, 0x82, 0x3e,
  0xf3, 0xba, 0x59, 0x3e, 0x37, 0xed, 0x91, 0x3c, 0xc5, 0x72, 0x26, 0x3d,
  0xbf, 0xe0, 0x86, 0xbd, 0xc2, 0x44, 0x89, 0x3e, 0xa2, 0x62, 0xa4, 0xbe,
  0xb2, 0x65, 0x8a, 0x3e, 0x5e, 0x9d, 0x8f, 0x3d, 0x33, 0xf1, 0x8b, 0xbc,
  0xdb, 0x4b, 0xe1, 0x3e, 0x3b, 0xdb, 0xa4, 0x3e, 0x7d, 0xb6, 0xee, 0x3e,
  0x8c, 0x3a, 0x2a, 0x3b, 0x80, 0x21, 0x4a, 0xbd, 0xcf, 0xc7, 0x2b, 0x3f,
  0x73, 0x85, 0x40, 0x3e, 0xb5, 0x4e, 0x00, 0x3e, 0x00, 0xd8, 0xd9, 0x3e,
  0xed, 0x6b, 0xec, 0x3e, 0x56, 0xa3, 0x0d, 0x3c, 0xec, 0x46, 0xd7, 0x3e,
  0xc1, 0xe5, 0xee, 0x3e, 0x60, 0x92, 0x05, 0x3f, 0x66, 0x91, 0x18, 0x3f,
  0x21, 0x6d, 0x34, 0x3e, 0x02, 0x4e, 0xd6, 0x3e, 0x44, 0x32, 0xa1, 0x3e,
  0xe8, 0x69, 0x80, 0x3e, 0xf9, 0x09, 0x9f, 0xbb, 0xc0, 0xd1, 0x03, 0x3e,
  0x37, 0x07, 0x2c, 0x3f, 0x50, 0x3f, 0xe8, 0x3e, 0x19, 0x32, 0x2e, 0x3e,
  0x5a, 0xeb, 0x0f, 0x3f, 0x39, 0x35, 0xe8, 0xbe, 0x5a, 0x96, 0xd8, 0xbe,
  0xab, 0xaa, 0x51, 0x3e, 0x84, 0x80, 0x89, 0x3e, 0x2c, 0x46, 0xd2, 0x3e,
  0xa6, 0x0c, 0xfb, 0x3e, 0xda, 0xe5, 0x6c, 0x3e, 0xe9, 0x15, 0x1d, 0x3e,
  0x68, 0xe9, 0xa3, 0x3e, 0xb0, 0x1b, 0xc4, 0x3e, 0xb9, 0xec, 0xab, 0x3d,
  0x05, 0x88, 0x88, 0x3e, 0x9a, 0xec, 0x76, 0x3c, 0x77, 0xa8, 0xac, 0x3e,
  0xad, 0xea, 0x9d, 0x3e, 0xc6, 0xf8, 0x10, 0x3f, 0x75, 0x6f, 0x02, 0x3f,
  0x58, 0x3c, 0x63, 0x3e, 0xcf, 0x2c, 0xdd, 0x3e, 0x75, 0xb8, 0xf4, 0x3e,
  0xfe, 0xa6, 0x47, 0x3e, 0xa0, 0xf2, 0x31, 0x3f, 0x11, 0x8f, 0x34, 0x3e,
  0x2e, 0x5e, 0xb7, 0x3e, 0x49, 0xb8, 0x04, 0x3f, 0xe4, 0xb2, 0x97, 0x3d,
  0x26, 0x69, 0xff, 0x3d, 0x15, 0x49, 0xb1, 0x3e, 0x54, 0xfd, 0x43, 0x3e,
  0xd4, 0xf9, 0x8e, 0x3e, 0x2d, 0x48, 0x51, 0x3e, 0xea, 0xfa, 0xdb, 0x3d,
  0x89, 0x96, 0x6d, 0xbd, 0x9d, 0x91, 0x28, 0xbe, 0xe7, 0xa3, 0x6d, 0x3e,
  0x57, 0x49, 0x18, 0x3f, 0x73, 0x0a, 0x14, 0x3e, 0x35, 0x11, 0xea, 0x3d,
  0x7f, 0x8a, 0xce, 0x3e, 0x2a, 0xe3, 0x48, 0x3e, 0x06, 0x58, 0x31, 0x3f,
  0x3f, 0x3c, 0xa7, 0x3e, 0x54, 0x8c, 0x66, 0x3e, 0xa6, 0xad, 0x3f, 0x3e,
  0xc0, 0x92, 0x19, 0x3f, 0xc7, 0x39, 0xb6, 0x3e, 0xbc, 0x88, 0xab, 0x3e,
  0x26, 0x09, 0x1e, 0x3d, 0x79, 0x30, 0x46, 0x3e, 0x60, 0x30, 0xf0, 0x3e,
  0xbc, 0x56, 0x52, 0x3d, 0xc4, 0x44, 0xe4, 0x3e, 0x3e, 0x6a, 0xd1, 0x3e,
  0x14, 0x14, 0x62, 0x3e, 0x75, 0xfd, 0x2e, 0x3e, 0x63, 0x4d, 0xc2, 0x3e,
  0x4f, 0x08, 0xef, 0x3e, 0x00, 0xe3, 0xb9, 0x3e, 0xf9, 0x57, 0xbd, 0x3e,
  0x73, 0xe6, 0xe9, 0x3e, 0x24, 0x64, 0xdd, 0x3d, 0xe7, 0xe4, 0x81, 0xbd,
  0x3d, 0x31, 0x01, 0x3f, 0x27, 0x00, 0x0a, 0x3f, 0xba, 0x91, 0xde, 0x3d,
  0x25, 0x6e, 0xc6, 0xbe, 0xe2, 0x39, 0x74, 0x3e, 0x25, 0x47, 0xc9, 0x3e,
  0x13, 0xa2, 0x59, 0xbc, 0x1b, 0xda, 0x07, 0x3f, 0xac, 0x0f, 0x97, 0x3e,
  0x7c, 0x7b, 0x59, 0xbf, 0x1d, 0x47, 0x04, 0x3e, 0xa2, 0xac, 0x13, 0xbf,
  0xf0, 0xe0, 0x0e, 0x3f, 0x19, 0x6b, 0x93, 0xbd, 0x5b, 0x3c, 0x62, 0xbe,
  0x9b, 0x7f, 0xc7, 0xbd, 0xcc, 0xa1, 0x6e, 0xbe, 0x92, 0xc6, 0x9f, 0xbe,
  0xe4, 0x24, 0x29, 0xbf, 0x38, 0x5f, 0x9e, 0x3d, 0xbb, 0x47, 0xea, 0x3e,
  0x1d, 0x3c, 0x4c, 0x3e, 0xb3, 0xaa, 0x32, 0x3d, 0xea, 0x1f, 0x36, 0xbf,
  0x3d, 0xf5, 0x31, 0x3e, 0xda, 0x8a, 0xc6, 0x3e, 0x9a, 0x15, 0xeb, 0xbe,
  0x6e, 0xbe, 0x15, 0xbd, 0x45, 0xb2, 0x06, 0x3f, 0x3c, 0x7a, 0xc3, 0x3d,
  0xa5, 0x91, 0x2b, 0x3f, 0x7f, 0xf8, 0xf7, 0xbd, 0xb0, 0x98, 0xad, 0x3e,
  0x2e, 0xd6, 0x32, 0xb9, 0x45, 0xa0, 0x92, 0x3f, 0xb7, 0xfe, 0x57, 0x3f,
  0x08, 0xe0, 0xa3, 0x3e, 0x28, 0xa1, 0x90, 0xbe, 0x5b, 0x67, 0x1d, 0x3f,
  0xd3, 0xb2, 0x0d, 0x3e, 0x56, 0x13, 0xc1, 0xbd, 0x85, 0x76, 0x13, 0xbe,
  0xbe, 0x0b, 0xbb, 0x3e, 0xaa, 0xba, 0xb6, 0x3e, 0x14, 0xb3, 0x27, 0x3e,
  0x06, 0xc9, 0x1c, 0xbc, 0x39, 0xd7, 0x8a, 0xbd, 0x10, 0xca, 0xcd, 0x3e,
  0x96, 0x05, 0x06, 0x3f, 0xb3, 0xf7, 0xc6, 0xbd, 0x86, 0x7f, 0x0e, 0x3e,
  0x49, 0x1c, 0x01, 0x3f, 0xea, 0x43, 0x02, 0x3f, 0xc0, 0x56, 0x49, 0x3e,
  0xee, 0x7d, 0xd9, 0x3d, 0x24, 0x68, 0x0b, 0x3e, 0xc2, 0x80, 0x20, 0xbd,
  0x6c, 0x9e, 0xa5, 0x3c, 0x7d, 0xf2, 0x03, 0x3f, 0x88, 0x95, 0x8a, 0x3e,
  0x04, 0x6f, 0xc8, 0x3e, 0xe8, 0xe8, 0x1d, 0x3e, 0x6b, 0x7e, 0xfe, 0x3e,
  0x9e, 0x77, 0xc9, 0x3e, 0x89, 0x9e, 0x71, 0xbd, 0x36, 0xee, 0x41, 0x3f,
  0x01, 0xd4, 0x0a, 0xbf, 0x81, 0x10, 0xaa, 0xbd, 0x48, 0x2b, 0x38, 0x3f,
  0x87, 0x90, 0x20, 0x3e, 0x1a, 0x58, 0xd7, 0x3e, 0x2e, 0x36, 0xe6, 0x3d,
  0xc9, 0x91, 0xe2, 0x3e, 0x65, 0x1b, 0x43, 0x3e, 0x55, 0x94, 0xbd, 0x3d,
  0xea, 0x6b, 0x8c, 0x3e, 0x8b, 0xf1, 0xa5, 0x3e, 0x10, 0x2d, 0x68, 0x3e,
  0xa1, 0xeb, 0xde, 0x3e, 0xaf, 0xae, 0x8b, 0x3e, 0xfc, 0xd2, 0xf3, 0x3e,
  0x63, 0xf6, 0x01, 0x3f, 0xdd, 0xdd, 0x42, 0xbd, 0x5e, 0x2e, 0x6b, 0x3e,
  0x30, 0xa2, 0x01, 0x3f, 0x55, 0xdc, 0x07, 0x3f, 0x3b, 0x3b, 0x5f, 0x3e,
  0x0c, 0xfa, 0xc5, 0x3e, 0xbc, 0x0d, 0xae, 0x3e, 0x56, 0x1a, 0x22, 0x3f,
  0x1a, 0xce, 0x0a, 0x3f, 0x95, 0xf4, 0x1d, 0x3e, 0xb4, 0x6b, 0xa5, 0xbd,
  0x01, 0xbb, 0x15, 0x3f, 0x93, 0x0b, 0x77, 0x3e, 0xd9, 0xe0, 0x46, 0x3e,
  0x8b, 0x22, 0xcf, 0x3e, 0x21, 0x5f, 0xfb, 0x3e, 0xec, 0xd1, 0x01, 0xbe,
  0x91, 0x0b, 0x1b, 0xbf, 0x60, 0x9e, 0xfd, 0x3e, 0x80, 0x54, 0x98, 0x3e,
  0x12, 0x27, 0x8c, 0xbd, 0x22, 0xb2, 0x52, 0x3e, 0x76, 0xf1, 0x38, 0xbd,
  0x74, 0x36, 0x8b, 0x3d, 0x79, 0x5d, 0x28, 0x3d, 0x66, 0x19, 0x77, 0x3e,
  0x27, 0xbe, 0xcf, 0xbd, 0x65, 0xac, 0x86, 0xbc, 0x23, 0xa6, 0x0c, 0x3e,
  0xb7, 0x28, 0xbd, 0xbd, 0x54, 0xe1, 0x4b, 0x3d, 0x24, 0xbd, 0x9c, 0xbe,
  0x1c, 0xdc, 0xac, 0xbd, 0xd2, 0x90, 0x0c, 0xbe, 0x96, 0xd5, 0xb5, 0xbd,
  0x7c, 0x18, 0x62, 0x3e, 0x92, 0x1e, 0x18, 0xbe, 0x9c, 0x36, 0x65, 0x3e,
  0x96, 0xcb, 0x1e, 0xbe, 0x0d, 0x16, 0xb1, 0xbe, 0xe1, 0x31, 0xcb, 0xbe,
  0x0a, 0x99, 0xf0, 0xbd, 0x04, 0x2b, 0xef, 0x3d, 0x13, 0xb8, 0xe8, 0x3d,
  0x98, 0x8e, 0xa3, 0xbe, 0xd5, 0xef, 0xb3, 0xbe, 0xdc, 0x45, 0xbc, 0xbe,
  0x52, 0x6e, 0x79, 0xbe, 0x63, 0xc5, 0x06, 0xbe, 0x65, 0xf1, 0x08, 0xbe,
  0x96, 0x63, 0xa2, 0xbd, 0x2b, 0xc6, 0x98, 0x3d, 0xa4, 0x61, 0x0d, 0x3f,
  0xeb, 0xff, 0x8e, 0xbd, 0xc8, 0x35, 0xa7, 0x3e, 0x6c, 0x38, 0x32, 0x3e,
  0x15, 0x61, 0xd1, 0x3d, 0x20, 0x73, 0x73, 0x3e, 0x61, 0x08, 0x9a, 0x3e,
  0x25, 0x91, 0x0a, 0x3f, 0xde, 0x6d, 0xc8, 0x3e, 0xa9, 0x02, 0x1c, 0x3f,
  0x92, 0xdd, 0xd4, 0x3e, 0x59, 0xcc, 0x03, 0x3e, 0x89, 0xcb, 0xe8, 0x3d,
  0x53, 0x4f, 0x1f, 0x3e, 0x82, 0x5f, 0x64, 0x3e, 0xc0, 0xcd, 0xc9, 0x3d,
  0xea, 0x04, 0x1d, 0x3e, 0x1f, 0xda, 0x11, 0x3f, 0x20, 0xa3, 0x48, 0x3e,
  0xc9, 0x94, 0x0d, 0x3e, 0x90, 0xa8, 0x78, 0x3e, 0x1b, 0x86, 0xb0, 0x3e,
  0xd8, 0xca, 0x62, 0x3e, 0xf4, 0xd9, 0x2d, 0x3f, 0x94, 0xcb, 0xd3, 0x3e,
  0x93, 0xd7, 0xfc, 0x3d, 0x8e, 0xba, 0xf8, 0x3e, 0xe8, 0x3e, 0xfe, 0x3e,
  0x85, 0x0a, 0xdf, 0xbe, 0x65, 0xff, 0xd7, 0xbe, 0xa0, 0xa4, 0xd7, 0x3e,
  0xe9, 0x94, 0x21, 0x3f, 0x8e, 0x99, 0x8d, 0xbe, 0x97, 0xb2, 0x15, 0xbf,
  0x11, 0x91, 0x5c, 0x3c, 0x10, 0x42, 0x18, 0xbe, 0x08, 0xc8, 0x85, 0x3b,
  0xf3, 0x86, 0x13, 0x3f, 0xc7, 0x31, 0x18, 0x3e, 0xe5, 0x0d, 0xa0, 0x3e,
  0x36, 0x94, 0xa1, 0x3d, 0x5b, 0x8c, 0xeb, 0x3e, 0x56, 0xcd, 0xcd, 0xbe,
  0x7c, 0x11, 0x24, 0xbf, 0x2f, 0xf2, 0xd2, 0xbe, 0xff, 0x1d, 0x4f, 0x3e,
  0x8c, 0x89, 0x5f, 0xbe, 0x21, 0x0a, 0xdd, 0xbe, 0xe1, 0x6e, 0xb9, 0xbe,
  0x2f, 0x4f, 0x3a, 0xbe, 0x6c, 0x61, 0xa2, 0xbe, 0xc9, 0xfa, 0x9c, 0x3e,
  0xa1, 0x8e, 0x51, 0xbe, 0xe4, 0x90, 0x1f, 0x3e, 0x72, 0xb0, 0xad, 0x3e,
  0x43, 0xf0, 0x29, 0x3d, 0x77, 0x98, 0xd3, 0xbe, 0x69, 0x1e, 0x24, 0xbe,
  0xc8, 0x17, 0xc8, 0x3d, 0x59, 0xe6, 0x22, 0x3e, 0xfe, 0x78, 0x01, 0x3e,
  0xfe, 0x59, 0xb9, 0x3d, 0x46, 0xe5, 0x3d, 0xbe, 0x5a, 0x44, 0xf1, 0x3d,
  0x74, 0x0f, 0x9a, 0x3e, 0xd0, 0xad, 0xe9, 0x3e, 0xb3, 0xe3, 0xf8, 0x3e,
  0x1f, 0x49, 0x94, 0x3e, 0xaa, 0x77, 0xb9, 0x3d, 0xd6, 0xd7, 0xc2, 0x3e,
  0xf3, 0xec, 0x64, 0x3e, 0x97, 0x21, 0x7c, 0xbd, 0x09, 0xbd, 0xd9, 0xbb,
  0xb9, 0x04, 0xcd, 0x3e, 0x31, 0xcd, 0x29, 0x3f, 0xbd, 0xfc, 0xb2, 0x3e,
  0x42, 0xa7, 0x89, 0x3e, 0xfe, 0x81, 0x1c, 0x3f, 0xe9, 0x11, 0x26, 0x3e,
  0xec, 0xfc, 0xda, 0x3e, 0xa8, 0x0f, 0x02, 0x3f, 0xe7, 0x9c, 0x16, 0x3e,
  0xf8, 0xf9, 0x84, 0x3e, 0x62, 0x1c, 0x12, 0x3e, 0xde, 0x96, 0x33, 0x3f,
  0x00, 0x94, 0x98, 0x3e, 0x38, 0x80, 0x94, 0x3a, 0xa5, 0x1d, 0xef, 0x3e,
  0x2f, 0x96, 0xce, 0x3e, 0xd1, 0x4f, 0x8a, 0xbd, 0x11, 0x68, 0x1b, 0x3e,
  0x73, 0x01, 0xd4, 0x3e, 0x0d, 0x21, 0x45, 0xbe, 0xbd, 0xd9, 0x21, 0xbf,
  0x59, 0x4e, 0xfb, 0x3e, 0x91, 0x73, 0x20, 0x3f, 0x70, 0x50, 0x7e, 0x3e,
  0x47, 0x9b, 0xb4, 0x3c, 0x22, 0xb7, 0xf2, 0x3d, 0x90, 0xb6, 0x96, 0x3c,
  0x6e, 0x12, 0x1d, 0x3f, 0xb4, 0x63, 0xfa, 0x3e, 0xc8, 0x60, 0xd7, 0x3d,
  0xbc, 0x5a, 0x35, 0x3e, 0x66, 0xc5, 0xd6, 0x3d, 0xd0, 0xa9, 0xe1, 0x3e,
  0x88, 0x20, 0x7b, 0x3e, 0xc2, 0xea, 0x8c, 0x3e, 0x39, 0xfb, 0x6d, 0xbc,
  0x37, 0x7d, 0x6e, 0xbb, 0x72, 0xa3, 0x4b, 0x3e, 0xf0, 0xaf, 0xd1, 0x3e,
  0xef, 0xda, 0xa0, 0x3e, 0x2e, 0x20, 0x0b, 0x3f, 0x0a, 0x3b, 0xfa, 0x3e,
  0xaa, 0xfe, 0x62, 0x3e, 0x2a, 0x3d, 0x09, 0x3f, 0xe4, 0x5c, 0x04, 0x3e,
  0x93, 0xb5, 0xc9, 0x3e, 0xd8, 0x18, 0xff, 0x3e, 0x15, 0x30, 0x07, 0x3f,
  0x95, 0x53, 0xe3, 0x3e, 0x2b, 0x22, 0xdf, 0x3d, 0xcd, 0x50, 0x92, 0x3e,
  0x34, 0xe5, 0x98, 0xbe, 0xeb, 0x18, 0xe8, 0xbc, 0xca, 0xaa, 0x1f, 0x3f,
  0x93, 0x0d, 0xa6, 0x3e, 0x89, 0x09, 0xd2, 0x3e, 0x2a, 0xab, 0x3c, 0x3e,
  0x17, 0x81, 0x1d, 0xbd, 0x87, 0x3d, 0x03, 0x3f, 0xad, 0x08, 0xf0, 0x3d,
  0xe1, 0x13, 0x0b, 0x3f, 0x22, 0x84, 0xa7, 0x3e, 0x50, 0x81, 0x06, 0x3f,
  0xbc, 0x8b, 0x4c, 0x3e, 0xe0, 0xa0, 0x10, 0x3e, 0xa9, 0x8a, 0x8d, 0x3e,
  0xc9, 0x16, 0xa2, 0x3e, 0xec, 0x4e, 0xb4, 0x3e, 0x5c, 0xdf, 0x32, 0x3d,
  0xd0, 0x9d, 0xee, 0x3d, 0x56, 0x26, 0xd4, 0x3e, 0x84, 0x96, 0xde, 0x3e,
  0xbd, 0x03, 0x0c, 0x3e, 0x3a, 0x4b, 0x0d, 0x3f, 0xaa, 0x0e, 0x16, 0x3f,
  0x60, 0xdb, 0xc2, 0x3e, 0xcf, 0x4a, 0x37, 0x3f, 0xfc, 0x6d, 0xdb, 0x3e,
  0xe0, 0x8c, 0xdf, 0x3e, 0x78, 0x0e, 0xd7, 0x3e, 0x43, 0xa3, 0xdb, 0x3e,
  0x19, 0x40, 0x41, 0x3e, 0x2e, 0x2b, 0xcf, 0x3e, 0x25, 0xd9, 0x0d, 0xbf,
  0x7a, 0xae, 0x44, 0xbe, 0x2e, 0x95, 0x38, 0x3f, 0x26, 0x5b, 0x53, 0x3e,
  0x17, 0xb9, 0xc5, 0x3e, 0x44, 0xfa, 0xfe, 0x3e, 0x17, 0xa3, 0xe5, 0x3d,
  0x95, 0xa8, 0x17, 0x3e, 0x36, 0x04, 0x33, 0x3f, 0xed, 0x01, 0x35, 0x3e,
  0x63, 0x69, 0x7b, 0x3e, 0xcc, 0xe3, 0xb3, 0x3e, 0x7a, 0xcf, 0x92, 0x3e,
  0x61, 0xea, 0x3b, 0x3e, 0x5c, 0x38, 0x23, 0x3f, 0x22, 0xf4, 0xf8, 0x3e,
  0x1f, 0x02, 0x71, 0x3e, 0x2a, 0xcc, 0x1c, 0x3e, 0x9d, 0x12, 0x10, 0x3f,
  0x0d, 0x41, 0x06, 0x3f, 0xcf, 0xe0, 0x69, 0x3d, 0x53, 0x8e, 0x07, 0x3e,
  0xba, 0x1d, 0xbf, 0x3e, 0x7b, 0x1f, 0x7f, 0x3e, 0x63, 0xa9, 0x73, 0x3e,
  0xb9, 0xd4, 0x22, 0x3e, 0x25, 0x6f, 0x8d, 0x3d, 0x3f, 0x81, 0xb8, 0x3e,
  0x58, 0x42, 0x19, 0x3f, 0x0b, 0xe4, 0x91, 0x3e, 0xba, 0x70, 0x53, 0x3c,
  0xf1, 0x08, 0xd0, 0x3e, 0x54, 0xa0, 0xa6, 0x3d, 0xe8, 0x51, 0x93, 0xbe,
  0x15, 0x21, 0x22, 0x3e, 0x22, 0x6c, 0xe5, 0x3e, 0xa2, 0xff, 0xff, 0xff,
  0x04, 0x00, 0x00, 0x00, 0x40, 0x00, 0x00, 0x00, 0xc8, 0x1f, 0x32, 0xbf,
  0x1f, 0x82, 0x01, 0xbf, 0x23, 0x63, 0xeb, 0x3e, 0xa0, 0x01, 0x27, 0xbf,
  0x8b, 0x7f, 0x31, 0xbf, 0x06, 0x5f, 0x3e, 0xbf, 0x61, 0x9e, 0x6d, 0x3f,
  0x09, 0xd1, 0x40, 0xbf, 0x2d, 0x6e, 0xc6, 0xbe, 0x25, 0x7b, 0xcc, 0x3d,
  0xbb, 0x35, 0xc9, 0xbe, 0x4b, 0xd7, 0x7d, 0x3f, 0xca, 0x5f, 0x4e, 0xbf,
  0xd8, 0x0e, 0x16, 0xbf, 0x9e, 0x51, 0xb6, 0xbe, 0xba, 0xd9, 0x33, 0xbf,
  0xee, 0xff, 0xff, 0xff, 0x04, 0x00, 0x00, 0x00, 0x04, 0x00, 0x00, 0x00,
  0x8f, 0xe9, 0x20, 0xbf, 0x00, 0x00, 0x06, 0x00, 0x08, 0x00, 0x04, 0x00,
  0x06, 0x00, 0x00, 0x00, 0x04, 0x00, 0x00, 0x00, 0x40, 0x00, 0x00, 0x00,
  0x5d, 0xb7, 0x22, 0x3f, 0x63, 0x9f, 0x32, 0x3f, 0x18, 0x42, 0x6e, 0xbd,
  0xde, 0xba, 0x48, 0x3f, 0x84, 0x7c, 0x2a, 0x3f, 0x13, 0x41, 0x28, 0x3f,
  0x3e, 0x9f, 0xbd, 0xbe, 0x2c, 0x66, 0x5b, 0x3f, 0x17, 0x3f, 0x32, 0x3f,
  0x0e, 0x38, 0x80, 0xbd, 0xb2, 0x96, 0x47, 0x3f, 0x6e, 0xec, 0x47, 0xbd,
  0xf6, 0x57, 0x2a, 0x3f, 0x5c, 0xdd, 0x36, 0x3f, 0xdb, 0xe0, 0x40, 0x3f,
  0x49, 0x3c, 0x2c, 0x3f, 0x24, 0xfb, 0xff, 0xff, 0x28, 0xfb, 0xff, 0xff,
  0x0f, 0x00, 0x00, 0x00, 0x4d, 0x4c, 0x49, 0x52, 0x20, 0x43, 0x6f, 0x6e,
  0x76, 0x65, 0x72, 0x74, 0x65, 0x64, 0x2e, 0x00, 0x01, 0x00, 0x00, 0x00,
  0x14, 0x00, 0x00, 0x00, 0x00, 0x00, 0x0e, 0x00, 0x18, 0x00, 0x14, 0x00,
  0x10, 0x00, 0x0c, 0x00, 0x08, 0x00, 0x04, 0x00, 0x0e, 0x00, 0x00, 0x00,
  0x14, 0x00, 0x00, 0x00, 0x1c, 0x00, 0x00, 0x00, 0xe8, 0x00, 0x00, 0x00,
  0xec, 0x00, 0x00, 0x00, 0xf0, 0x00, 0x00, 0x00, 0x04, 0x00, 0x00, 0x00,
  0x6d, 0x61, 0x69, 0x6e, 0x00, 0x00, 0x00, 0x00, 0x03, 0x00, 0x00, 0x00,
  0x90, 0x00, 0x00, 0x00, 0x48, 0x00, 0x00, 0x00, 0x04, 0x00, 0x00, 0x00,
  0xce, 0xff, 0xff, 0xff, 0x10, 0x00, 0x00, 0x00, 0x00, 0x00, 0x00, 0x08,
  0x0c, 0x00, 0x00, 0x00, 0x10, 0x00, 0x00, 0x00, 0xa0, 0xfb, 0xff, 0xff,
  0x01, 0x00, 0x00, 0x00, 0x09, 0x00, 0x00, 0x00, 0x03, 0x00, 0x00, 0x00,
  0x08, 0x00, 0x00, 0x00, 0x03, 0x00, 0x00, 0x00, 0x02, 0x00, 0x00, 0x00,
  0x00, 0x00, 0x0e, 0x00, 0x14, 0x00, 0x00, 0x00, 0x10, 0x00, 0x0c, 0x00,
  0x0b, 0x00, 0x04, 0x00, 0x0e, 0x00, 0x00, 0x00, 0x10, 0x00, 0x00, 0x00,
  0x00, 0x00, 0x00, 0x08, 0x10, 0x00, 0x00, 0x00, 0x14, 0x00, 0x00, 0x00,
  0xba, 0xff, 0xff, 0xff, 0x00, 0x00, 0x00, 0x01, 0x01, 0x00, 0x00, 0x00,
  0x08, 0x00, 0x00, 0x00, 0x03, 0x00, 0x00, 0x00, 0x07, 0x00, 0x00, 0x00,
  0x04, 0x00, 0x00, 0x00, 0x01, 0x00, 0x00, 0x00, 0x00, 0x00, 0x0e, 0x00,
  0x16, 0x00, 0x00, 0x00, 0x10, 0x00, 0x0c, 0x00, 0x0b, 0x00, 0x04, 0x00,
  0x0e, 0x00, 0x00, 0x00, 0x18, 0x00, 0x00, 0x00, 0x00, 0x00, 0x00, 0x08,
  0x18, 0x00, 0x00, 0x00, 0x1c, 0x00, 0x00, 0x00, 0x00, 0x00, 0x06, 0x00,
  0x08, 0x00, 0x07, 0x00, 0x06, 0x00, 0x00, 0x00, 0x00, 0x00, 0x00, 0x01,
  0x01, 0x00, 0x00, 0x00, 0x07, 0x00, 0x00, 0x00, 0x03, 0x00, 0x00, 0x00,
  0x00, 0x00, 0x00, 0x00, 0x05, 0x00, 0x00, 0x00, 0x06, 0x00, 0x00, 0x00,
  0x01, 0x00, 0x00, 0x00, 0x09, 0x00, 0x00, 0x00, 0x01, 0x00, 0x00, 0x00,
  0x00, 0x00, 0x00, 0x00, 0x0a, 0x00, 0x00, 0x00, 0x78, 0x03, 0x00, 0x00,
  0x24, 0x03, 0x00, 0x00, 0xd0, 0x02, 0x00, 0x00, 0x90, 0x02, 0x00, 0x00,
  0x50, 0x02, 0x00, 0x00, 0x00, 0x02, 0x00, 0x00, 0x98, 0x01, 0x00, 0x00,
  0xfc, 0x00, 0x00, 0x00, 0x60, 0x00, 0x00, 0x00, 0x04, 0x00, 0x00, 0x00,
  0xc6, 0xfc, 0xff, 0xff, 0x00, 0x00, 0x00, 0x01, 0x14, 0x00, 0x00, 0x00,
  0x1c, 0x00, 0x00, 0x00, 0x1c, 0x00, 0x00, 0x00, 0x0a, 0x00, 0x00, 0x00,
  0x34, 0x00, 0x00, 0x00, 0x02, 0x00, 0x00, 0x00, 0xff, 0xff, 0xff, 0xff,
  0x01, 0x00, 0x00, 0x00, 0xb0, 0xfc, 0xff, 0xff, 0x1b, 0x00, 0x00, 0x00,
  0x53, 0x74, 0x61, 0x74, 0x65, 0x66, 0x75, 0x6c, 0x50, 0x61, 0x72, 0x74,
  0x69, 0x74, 0x69, 0x6f, 0x6e, 0x65, 0x64, 0x43, 0x61, 0x6c, 0x6c, 0x5f,
  0x31, 0x3a, 0x30, 0x00, 0x02, 0x00, 0x00, 0x00, 0x01, 0x00, 0x00, 0x00,
  0x01, 0x00, 0x00, 0x00, 0x1e, 0xfd, 0xff, 0xff, 0x00, 0x00, 0x00, 0x01,
  0x14, 0x00, 0x00, 0x00, 0x1c, 0x00, 0x00, 0x00, 0x1c, 0x00, 0x00, 0x00,
  0x09, 0x00, 0x00, 0x00, 0x74, 0x00, 0x00, 0x00, 0x02, 0x00, 0x00, 0x00,
  0xff, 0xff, 0xff, 0xff, 0x10, 0x00, 0x00, 0x00, 0x08, 0xfd, 0xff, 0xff,
  0x58, 0x00, 0x00, 0x00, 0x73, 0x65, 0x71, 0x75, 0x65, 0x6e, 0x74, 0x69,
  0x61, 0x6c, 0x5f, 0x31, 0x2f, 0x68, 0x69, 0x64, 0x64, 0x65, 0x6e, 0x32,
  0x5f, 0x31, 0x2f, 0x4d, 0x61, 0x74, 0x4d, 0x75, 0x6c, 0x3b, 0x73, 0x65,
  0x71, 0x75, 0x65, 0x6e, 0x74, 0x69, 0x61, 0x6c, 0x5f, 0x31, 0x2f, 0x68,
  0x69, 0x64, 0x64, 0x65, 0x6e, 0x32, 0x5f, 0x31, 0x2f, 0x52, 0x65, 0x6c,
  0x75, 0x3b, 0x73, 0x65, 0x71, 0x75, 0x65, 0x6e, 0x74, 0x69, 0x61, 0x6c,
  0x5f, 0x31, 0x2f, 0x68, 0x69, 0x64, 0x64, 0x65, 0x6e, 0x32, 0x5f, 0x31,
  0x2f, 0x42, 0x69, 0x61, 0x73, 0x41, 0x64, 0x64, 0x00, 0x00, 0x00, 0x00,
  0x02, 0x00, 0x00, 0x00, 0x01, 0x00, 0x00, 0x00, 0x10, 0x00, 0x00, 0x00,
  0xb6, 0xfd, 0xff, 0xff, 0x00, 0x00, 0x00, 0x01, 0x14, 0x00, 0x00, 0x00,
  0x1c, 0x00, 0x00, 0x00, 0x1c, 0x00, 0x00, 0x00, 0x08, 0x00, 0x00, 0x00,
  0x74, 0x00, 0x00, 0x00, 0x02, 0x00, 0x00, 0x00, 0xff, 0xff, 0xff, 0xff,
  0x20, 0x00, 0x00, 0x00, 0xa0, 0xfd, 0xff, 0xff, 0x58, 0x00, 0x00, 0x00,
  0x73, 0x65, 0x71, 0x75, 0x65, 0x6e, 0x74, 0x69, 0x61, 0x6c, 0x5f, 0x31,
  0x2f, 0x68, 0x69, 0x64, 0x64, 0x65, 0x6e, 0x31, 0x5f, 0x31, 0x2f, 0x4d,
  0x61, 0x74, 0x4d, 0x75, 0x6c, 0x3b, 0x73, 0x65, 0x71, 0x75, 0x65, 0x6e,
  0x74, 0x69, 0x61, 0x6c, 0x5f, 0x31, 0x2f, 0x68, 0x69, 0x64, 0x64, 0x65,
  0x6e, 0x31, 0x5f, 0x31, 0x2f, 0x52, 0x65, 0x6c, 0x75, 0x3b, 0x73, 0x65,
  0x71, 0x75, 0x65, 0x6e, 0x74, 0x69, 0x61, 0x6c, 0x5f, 0x31, 0x2f, 0x68,
  0x69, 0x64, 0x64, 0x65, 0x6e, 0x31, 0x5f, 0x31, 0x2f, 0x42, 0x69, 0x61,
  0x73, 0x41, 0x64, 0x64, 0x00, 0x00, 0x00, 0x00, 0x02, 0x00, 0x00, 0x00,
  0x01, 0x00, 0x00, 0x00, 0x20, 0x00, 0x00, 0x00, 0x9e, 0xfe, 0xff, 0xff,
  0x00, 0x00, 0x00, 0x01, 0x10, 0x00, 0x00, 0x00, 0x10, 0x00, 0x00, 0x00,
  0x07, 0x00, 0x00, 0x00, 0x48, 0x00, 0x00, 0x00, 0x28, 0xfe, 0xff, 0xff,
  0x3a, 0x00, 0x00, 0x00, 0x73, 0x65, 0x71, 0x75, 0x65, 0x6e, 0x74, 0x69,
  0x61, 0x6c, 0x5f, 0x31, 0x2f, 0x68, 0x69, 0x64, 0x64, 0x65, 0x6e, 0x31,
  0x5f, 0x31, 0x2f, 0x52, 0x65, 0x6c, 0x75, 0x3b, 0x73, 0x65, 0x71, 0x75,
  0x65, 0x6e, 0x74, 0x69, 0x61, 0x6c, 0x5f, 0x31, 0x2f, 0x68, 0x69, 0x64,
  0x64, 0x65, 0x6e, 0x31, 0x5f, 0x31, 0x2f, 0x42, 0x69, 0x61, 0x73, 0x41,
  0x64, 0x64, 0x00, 0x00, 0x01, 0x00, 0x00, 0x00, 0x20, 0x00, 0x00, 0x00,
  0x02, 0xff, 0xff, 0xff, 0x00, 0x00, 0x00, 0x01, 0x10, 0x00, 0x00, 0x00,
  0x10, 0x00, 0x00, 0x00, 0x06, 0x00, 0x00, 0x00, 0x2c, 0x00, 0x00, 0x00,
  0x8c, 0xfe, 0xff, 0xff, 0x1d, 0x00, 0x00, 0x00, 0x73, 0x65, 0x71, 0x75,
  0x65, 0x6e, 0x74, 0x69, 0x61, 0x6c, 0x5f, 0x31, 0x2f, 0x68, 0x69, 0x64,
  0x64, 0x65, 0x6e, 0x31, 0x5f, 0x31, 0x2f, 0x4d, 0x61, 0x74, 0x4d, 0x75,
  0x6c, 0x00, 0x00, 0x00, 0x02, 0x00, 0x00, 0x00, 0x20, 0x00, 0x00, 0x00,
  0x06, 0x00, 0x00, 0x00, 0x4e, 0xff, 0xff, 0xff, 0x00, 0x00, 0x00, 0x01,
  0x10, 0x00, 0x00, 0x00, 0x10, 0x00, 0x00, 0x00, 0x05, 0x00, 0x00, 0x00,
  0x1c, 0x00, 0x00, 0x00, 0xd8, 0xfe, 0xff, 0xff, 0x0f, 0x00, 0x00, 0x00,
  0x61, 0x72, 0x69, 0x74, 0x68, 0x2e, 0x63, 0x6f, 0x6e, 0x73, 0x74, 0x61,
  0x6e, 0x74, 0x33, 0x00, 0x02, 0x00, 0x00, 0x00, 0x10, 0x00, 0x00, 0x00,
  0x20, 0x00, 0x00, 0x00, 0x8a, 0xff, 0xff, 0xff, 0x00, 0x00, 0x00, 0x01,
  0x10, 0x00, 0x00, 0x00, 0x10, 0x00, 0x00, 0x00, 0x04, 0x00, 0x00, 0x00,
  0x1c, 0x00, 0x00, 0x00, 0x14, 0xff, 0xff, 0xff, 0x0f, 0x00, 0x00, 0x00,
  0x61, 0x72, 0x69, 0x74, 0x68, 0x2e, 0x63, 0x6f, 0x6e, 0x73, 0x74, 0x61,
  0x6e, 0x74, 0x32, 0x00, 0x02, 0x00, 0x00, 0x00, 0x01, 0x00, 0x00, 0x00,
  0x10, 0x00, 0x00, 0x00, 0xc6, 0xff, 0xff, 0xff, 0x00, 0x00, 0x00, 0x01,
  0x10, 0x00, 0x00, 0x00, 0x10, 0x00, 0x00, 0x00, 0x03, 0x00, 0x00, 0x00,
  0x1c, 0x00, 0x00, 0x00, 0x50, 0xff, 0xff, 0xff, 0x0f, 0x00, 0x00, 0x00,
  0x61, 0x72, 0x69, 0x74, 0x68, 0x2e, 0x63, 0x6f, 0x6e, 0x73, 0x74, 0x61,
  0x6e, 0x74, 0x31, 0x00, 0x01, 0x00, 0x00, 0x00, 0x01, 0x00, 0x00, 0x00,
  0x00, 0x00, 0x16, 0x00, 0x18, 0x00, 0x14, 0x00, 0x00, 0x00, 0x10, 0x00,
  0x0c, 0x00, 0x08, 0x00, 0x00, 0x00, 0x00, 0x00, 0x00, 0x00, 0x07, 0x00,
  0x16, 0x00, 0x00, 0x00, 0x00, 0x00, 0x00, 0x01, 0x10, 0x00, 0x00, 0x00,
  0x10, 0x00, 0x00, 0x00, 0x02, 0x00, 0x00, 0x00, 0x1c, 0x00, 0x00, 0x00,
  0xa0, 0xff, 0xff, 0xff, 0x0e, 0x00, 0x00, 0x00, 0x61, 0x72, 0x69, 0x74,
  0x68, 0x2e, 0x63, 0x6f, 0x6e, 0x73, 0x74, 0x61, 0x6e, 0x74, 0x00, 0x00,
  0x01, 0x00, 0x00, 0x00, 0x10, 0x00, 0x00, 0x00, 0x00, 0x00, 0x16, 0x00,
  0x1c, 0x00, 0x18, 0x00, 0x00, 0x00, 0x14, 0x00, 0x10, 0x00, 0x0c, 0x00,
  0x00, 0x00, 0x00, 0x00, 0x08, 0x00, 0x07, 0x00, 0x16, 0x00, 0x00, 0x00,
  0x00, 0x00, 0x00, 0x01, 0x14, 0x00, 0x00, 0x00, 0x20, 0x00, 0x00, 0x00,
  0x20, 0x00, 0x00, 0x00, 0x01, 0x00, 0x00, 0x00, 0x3c, 0x00, 0x00, 0x00,
  0x02, 0x00, 0x00, 0x00, 0xff, 0xff, 0xff, 0xff, 0x06, 0x00, 0x00, 0x00,
  0x04, 0x00, 0x04, 0x00, 0x04, 0x00, 0x00, 0x00, 0x1e, 0x00, 0x00, 0x00,
  0x73, 0x65, 0x72, 0x76, 0x69, 0x6e, 0x67, 0x5f, 0x64, 0x65, 0x66, 0x61,
  0x75, 0x6c, 0x74, 0x5f, 0x6b, 0x65, 0x72, 0x61, 0x73, 0x5f, 0x74, 0x65,
  0x6e, 0x73, 0x6f, 0x72, 0x3a, 0x30, 0x00, 0x00, 0x02, 0x00, 0x00, 0x00,
  0x01, 0x00, 0x00, 0x00, 0x06, 0x00, 0x00, 0x00, 0x01, 0x00, 0x00, 0x00,
  0x10, 0x00, 0x00, 0x00, 0x0c, 0x00, 0x0c, 0x00, 0x0b, 0x00, 0x00, 0x00,
  0x00, 0x00, 0x04, 0x00, 0x0c, 0x00, 0x00, 0x00, 0x09, 0x00, 0x00, 0x00,
  0x00, 0x00, 0x00, 0x09
};

const unsigned int rssi_model_tflite_len = 4972;

#endif // RSSI_MODEL_H
